TRT-8601-EntropyCalibration2
images: 3caa54fc
res1_conv_out_0: 3da098ac
(Unnamed Layer* 1) [Constant]_output: 3b6e563c
res1_scale_out_0: 3c7da023
(Unnamed Layer* 3) [Constant]_output: 3bf9b795
res1_bias_out_0: 3c8ccef7
res1_relu_out_0: 3c8637cd
res1_maxpool_out_0: 3c8637cd
res2a_branch2a_conv_out_0: 3cecbf8a
res2a_branch1_conv_out_0: 3c9f3a13
(Unnamed Layer* 9) [Constant]_output: 3cc1f3fe
res2a_branch2a_scale_out_0: 3cb49953
(Unnamed Layer* 11) [Constant]_output: 3ce1aa4d
res2a_branch1_scale_out_0: 3cd9cfde
(Unnamed Layer* 13) [Constant]_output: 3bea1bb6
res2a_branch2a_bias_out_0: 3c773e9e
(Unnamed Layer* 15) [Constant]_output: 3c88aa25
res2a_branch1_bias_out_0: 3c62af6a
res2a_branch2a_relu_out_0: 3c18ffa4
res2a_branch2b_conv_out_0: 3be497e0
(Unnamed Layer* 19) [Constant]_output: 3dd817fc
res2a_branch2b_scale_out_0: 3c8f34a7
(Unnamed Layer* 21) [Constant]_output: 3b80787d
res2a_branch2b_bias_out_0: 3c88510c
res2a_branch2b_relu_out_0: 3c6283ae
res2a_branch2c_conv_out_0: 3c073d9e
(Unnamed Layer* 25) [Constant]_output: 3cfeb45c
res2a_branch2c_scale_out_0: 3c6d9002
(Unnamed Layer* 27) [Constant]_output: 3baaa93a
res2a_branch2c_bias_out_0: 3c4bc9c1
res2a_residual_add_out_0: 3c91f3be
res2a_relu_out_0: 3c5d31ce
res2b_branch2a_conv_out_0: 3c1cf041
(Unnamed Layer* 32) [Constant]_output: 3c8a2420
res2b_branch2a_scale_out_0: 3c3aad7b
(Unnamed Layer* 34) [Constant]_output: 3b8f26b7
res2b_branch2a_bias_out_0: 3bf71fba
res2b_branch2a_relu_out_0: 3c1a0ae2
res2b_branch2b_conv_out_0: 3b7761e2
(Unnamed Layer* 38) [Constant]_output: 3d95db90
res2b_branch2b_scale_out_0: 3c46dfc4
(Unnamed Layer* 40) [Constant]_output: 3bb75d8e
res2b_branch2b_bias_out_0: 3c45b63d
res2b_branch2b_relu_out_0: 3c39e7a5
res2b_branch2c_conv_out_0: 3b91fd55
(Unnamed Layer* 44) [Constant]_output: 3d05f419
res2b_branch2c_scale_out_0: 3c1c58e4
(Unnamed Layer* 46) [Constant]_output: 3bca30ac
res2b_branch2c_bias_out_0: 3c222b69
res2b_residual_add_out_0: 3c6345d7
res2b_relu_out_0: 3c6345d7
res2c_branch2a_conv_out_0: 3bf59d4c
(Unnamed Layer* 51) [Constant]_output: 3c5c6837
res2c_branch2a_scale_out_0: 3bfe8f80
(Unnamed Layer* 53) [Constant]_output: 3b4dc209
res2c_branch2a_bias_out_0: 3bf0359d
res2c_branch2a_relu_out_0: 3bf0359d
res2c_branch2b_conv_out_0: 3b25fd42
(Unnamed Layer* 57) [Constant]_output: 3d87a3bc
res2c_branch2b_scale_out_0: 3c2cc855
(Unnamed Layer* 59) [Constant]_output: 3b7212a4
res2c_branch2b_bias_out_0: 3c18fee2
res2c_branch2b_relu_out_0: 3c123a37
res2c_branch2c_conv_out_0: 3b4a8909
(Unnamed Layer* 63) [Constant]_output: 3d365d3c
res2c_branch2c_scale_out_0: 3c17ede5
(Unnamed Layer* 65) [Constant]_output: 3bd908a1
res2c_branch2c_bias_out_0: 3c0056a5
res2c_residual_add_out_0: 3c6cf623
res2c_relu_out_0: 3c82a063
res3a_branch2a_conv_out_0: 3c4e2a7e
res3a_branch1_conv_out_0: 3c2e92f0
(Unnamed Layer* 71) [Constant]_output: 3c7d60bf
res3a_branch2a_scale_out_0: 3c57d02e
(Unnamed Layer* 73) [Constant]_output: 3c8e8e28
res3a_branch1_scale_out_0: 3c3bd8f3
(Unnamed Layer* 75) [Constant]_output: 3b9b0d24
res3a_branch2a_bias_out_0: 3c4309e3
(Unnamed Layer* 77) [Constant]_output: 3b968a3b
res3a_branch1_bias_out_0: 3c2f2ee7
res3a_branch2a_relu_out_0: 3c2a30a9
res3a_branch2b_conv_out_0: 3bad931f
(Unnamed Layer* 81) [Constant]_output: 3d71945e
res3a_branch2b_scale_out_0: 3c80c2ed
(Unnamed Layer* 83) [Constant]_output: 3b79b63b
res3a_branch2b_bias_out_0: 3c74fdad
res3a_branch2b_relu_out_0: 3c4d7f4d
res3a_branch2c_conv_out_0: 3be4a78c
(Unnamed Layer* 87) [Constant]_output: 3d0fa0bd
res3a_branch2c_scale_out_0: 3c85fc54
(Unnamed Layer* 89) [Constant]_output: 3b92e6fc
res3a_branch2c_bias_out_0: 3c83a1d4
res3a_residual_add_out_0: 3c937269
res3a_relu_out_0: 3c924d6d
res3b_branch2a_conv_out_0: 3c41e24d
(Unnamed Layer* 94) [Constant]_output: 3c83984e
res3b_branch2a_scale_out_0: 3c25acf4
(Unnamed Layer* 96) [Constant]_output: 3b3c69e2
res3b_branch2a_bias_out_0: 3c27e2f1
res3b_branch2a_relu_out_0: 3c2339d6
res3b_branch2b_conv_out_0: 3b98e6cc
(Unnamed Layer* 100) [Constant]_output: 3d806aae
res3b_branch2b_scale_out_0: 3c8e32cb
(Unnamed Layer* 102) [Constant]_output: 3b3781d4
res3b_branch2b_bias_out_0: 3c7ceb8a
res3b_branch2b_relu_out_0: 3c23d31e
res3b_branch2c_conv_out_0: 3b839720
(Unnamed Layer* 106) [Constant]_output: 3d2e619a
res3b_branch2c_scale_out_0: 3c7af551
(Unnamed Layer* 108) [Constant]_output: 3b9f7cb9
res3b_branch2c_bias_out_0: 3c531e65
res3b_residual_add_out_0: 3c87e712
res3b_relu_out_0: 3c8b2964
res3c_branch2a_conv_out_0: 3c3258c9
(Unnamed Layer* 113) [Constant]_output: 3c6eac87
res3c_branch2a_scale_out_0: 3c3059a7
(Unnamed Layer* 115) [Constant]_output: 3b1c40e5
res3c_branch2a_bias_out_0: 3c37eca6
res3c_branch2a_relu_out_0: 3c297ea1
res3c_branch2b_conv_out_0: 3b97d928
(Unnamed Layer* 119) [Constant]_output: 3d8dbe9c
res3c_branch2b_scale_out_0: 3c8bb0d4
(Unnamed Layer* 121) [Constant]_output: 3b487a17
res3c_branch2b_bias_out_0: 3c8b2cdb
res3c_branch2b_relu_out_0: 3c5ce186
res3c_branch2c_conv_out_0: 3b77bf46
(Unnamed Layer* 125) [Constant]_output: 3d25aa1a
res3c_branch2c_scale_out_0: 3c47190e
(Unnamed Layer* 127) [Constant]_output: 3b3a71e6
res3c_branch2c_bias_out_0: 3c34fca5
res3c_residual_add_out_0: 3c76b2d2
res3c_relu_out_0: 3c76b2d2
res3d_branch2a_conv_out_0: 3c280028
(Unnamed Layer* 132) [Constant]_output: 3c66e0da
res3d_branch2a_scale_out_0: 3c30df63
(Unnamed Layer* 134) [Constant]_output: 3b0eda94
res3d_branch2a_bias_out_0: 3c3bb9ef
res3d_branch2a_relu_out_0: 3c2ac8ac
res3d_branch2b_conv_out_0: 3bb85c55
(Unnamed Layer* 138) [Constant]_output: 3da0d09a
res3d_branch2b_scale_out_0: 3c736c8d
(Unnamed Layer* 140) [Constant]_output: 3b81f690
res3d_branch2b_bias_out_0: 3c6ddd8b
res3d_branch2b_relu_out_0: 3c4b607c
res3d_branch2c_conv_out_0: 3bbcace0
(Unnamed Layer* 144) [Constant]_output: 3d3553b4
res3d_branch2c_scale_out_0: 3c51a895
(Unnamed Layer* 146) [Constant]_output: 3b467a02
res3d_branch2c_bias_out_0: 3c470d5d
res3d_residual_add_out_0: 3c85dfb3
res3d_relu_out_0: 3c85dfb3
res4a_branch2a_conv_out_0: 3c39b206
res4a_branch1_conv_out_0: 3be81282
1399: 3c559af9
(Unnamed Layer* 153) [Constant]_output: 3c81d0f9
res4a_branch2a_scale_out_0: 3c6cd1ee
(Unnamed Layer* 155) [Constant]_output: 3c81fa9f
res4a_branch1_scale_out_0: 3c0dccdd
(Unnamed Layer* 159) [Constant]_output: 3af3144e
res4a_branch2a_bias_out_0: 3c6e527e
(Unnamed Layer* 161) [Constant]_output: 3b026496
res4a_branch1_bias_out_0: 3bf78711
res4a_branch2a_relu_out_0: 3c5d9f33
res4a_branch2b_conv_out_0: 3bce35c4
(Unnamed Layer* 172) [Constant]_output: 3d7bf667
res4a_branch2b_scale_out_0: 3c7f8728
(Unnamed Layer* 175) [Constant]_output: 3b48381b
res4a_branch2b_bias_out_0: 3c67b5d2
res4a_branch2b_relu_out_0: 3c699f9f
res4a_branch2c_conv_out_0: 3bd23789
(Unnamed Layer* 179) [Constant]_output: 3cf158b1
res4a_branch2c_scale_out_0: 3c89f374
(Unnamed Layer* 181) [Constant]_output: 3b8aef02
res4a_branch2c_bias_out_0: 3c608d42
res4a_residual_add_out_0: 3c9441e5
res4a_relu_out_0: 3c98e2a1
res4b_branch2a_conv_out_0: 3c609589
(Unnamed Layer* 186) [Constant]_output: 3c6a062e
res4b_branch2a_scale_out_0: 3c776e80
(Unnamed Layer* 188) [Constant]_output: 3b368992
res4b_branch2a_bias_out_0: 3c7f9860
res4b_branch2a_relu_out_0: 3c34eece
res4b_branch2b_conv_out_0: 3bdcd574
(Unnamed Layer* 192) [Constant]_output: 3d8f719b
res4b_branch2b_scale_out_0: 3cb03b1c
(Unnamed Layer* 194) [Constant]_output: 3b748a59
res4b_branch2b_bias_out_0: 3cae8fe4
res4b_branch2b_relu_out_0: 3c41a83e
res4b_branch2c_conv_out_0: 3b9d1e68
(Unnamed Layer* 198) [Constant]_output: 3d21bbc5
res4b_branch2c_scale_out_0: 3c83de14
(Unnamed Layer* 200) [Constant]_output: 3b8e86e8
res4b_branch2c_bias_out_0: 3c717648
res4b_residual_add_out_0: 3c7978d4
res4b_relu_out_0: 3c88f7da
res4c_branch2a_conv_out_0: 3c5f06e1
(Unnamed Layer* 205) [Constant]_output: 3c6025b8
res4c_branch2a_scale_out_0: 3c4cb7b0
(Unnamed Layer* 207) [Constant]_output: 3b042aa9
res4c_branch2a_bias_out_0: 3c3cc8e9
res4c_branch2a_relu_out_0: 3c33e927
res4c_branch2b_conv_out_0: 3b9b6fe3
(Unnamed Layer* 211) [Constant]_output: 3d9222d9
res4c_branch2b_scale_out_0: 3c8e3791
(Unnamed Layer* 213) [Constant]_output: 3b401ad5
res4c_branch2b_bias_out_0: 3c8329ad
res4c_branch2b_relu_out_0: 3c40f6df
res4c_branch2c_conv_out_0: 3b6b1d1d
(Unnamed Layer* 217) [Constant]_output: 3d328912
res4c_branch2c_scale_out_0: 3c3e0cca
(Unnamed Layer* 219) [Constant]_output: 3b21ede4
res4c_branch2c_bias_out_0: 3c4ee5fc
res4c_residual_add_out_0: 3c82314e
res4c_relu_out_0: 3c8ed8ca
res4d_branch2a_conv_out_0: 3c1cdedc
(Unnamed Layer* 224) [Constant]_output: 3c6c9001
res4d_branch2a_scale_out_0: 3c4a9e85
(Unnamed Layer* 226) [Constant]_output: 3ae57041
res4d_branch2a_bias_out_0: 3c432a12
res4d_branch2a_relu_out_0: 3c34b8e5
res4d_branch2b_conv_out_0: 3b9f248a
(Unnamed Layer* 230) [Constant]_output: 3ddd5cf7
res4d_branch2b_scale_out_0: 3c8a07a9
(Unnamed Layer* 232) [Constant]_output: 3b427694
res4d_branch2b_bias_out_0: 3c82f533
res4d_branch2b_relu_out_0: 3c32396f
res4d_branch2c_conv_out_0: 3b542b41
(Unnamed Layer* 236) [Constant]_output: 3d3906c5
res4d_branch2c_scale_out_0: 3c509874
(Unnamed Layer* 238) [Constant]_output: 3b60942d
res4d_branch2c_bias_out_0: 3c56d444
res4d_residual_add_out_0: 3c82fa63
res4d_relu_out_0: 3c873357
res4e_branch2a_conv_out_0: 3c179b96
(Unnamed Layer* 243) [Constant]_output: 3c75973f
res4e_branch2a_scale_out_0: 3c39a81d
(Unnamed Layer* 245) [Constant]_output: 3af43e3e
res4e_branch2a_bias_out_0: 3c3cb414
res4e_branch2a_relu_out_0: 3c2e3321
res4e_branch2b_conv_out_0: 3b765260
(Unnamed Layer* 249) [Constant]_output: 3dd1599b
res4e_branch2b_scale_out_0: 3c7d8d45
(Unnamed Layer* 251) [Constant]_output: 3b4c136f
res4e_branch2b_bias_out_0: 3c823290
res4e_branch2b_relu_out_0: 3c4158de
res4e_branch2c_conv_out_0: 3b450fb8
(Unnamed Layer* 255) [Constant]_output: 3d43620e
res4e_branch2c_scale_out_0: 3c2e9345
(Unnamed Layer* 257) [Constant]_output: 3b4a1893
res4e_branch2c_bias_out_0: 3c62e38c
res4e_residual_add_out_0: 3c827585
res4e_relu_out_0: 3c827585
res4f_branch2a_conv_out_0: 3c18def1
(Unnamed Layer* 262) [Constant]_output: 3c939e38
res4f_branch2a_scale_out_0: 3c484029
(Unnamed Layer* 264) [Constant]_output: 3ad7e7ae
res4f_branch2a_bias_out_0: 3c506b95
res4f_branch2a_relu_out_0: 3c2afcd5
res4f_branch2b_conv_out_0: 3b871ff6
(Unnamed Layer* 268) [Constant]_output: 3dbf39f8
res4f_branch2b_scale_out_0: 3c831020
(Unnamed Layer* 270) [Constant]_output: 3b2d53f2
res4f_branch2b_bias_out_0: 3c80925f
res4f_branch2b_relu_out_0: 3c569187
res4f_branch2c_conv_out_0: 3bac1c1b
(Unnamed Layer* 274) [Constant]_output: 3d3a60dd
res4f_branch2c_scale_out_0: 3c888591
(Unnamed Layer* 276) [Constant]_output: 3b27a15d
res4f_branch2c_bias_out_0: 3c8b65b0
res4f_residual_add_out_0: 3c959ab5
res4f_relu_out_0: 3c8ada26
res5a_branch2a_conv_out_0: 3c09f30f
res5a_branch1_conv_out_0: 3bb7d40a
1377: 3c39a82d
(Unnamed Layer* 283) [Constant]_output: 3c761930
res5a_branch2a_scale_out_0: 3c28d7fe
(Unnamed Layer* 285) [Constant]_output: 3ccec19c
res5a_branch1_scale_out_0: 3c65d5b9
(Unnamed Layer* 289) [Constant]_output: 3ad701be
res5a_branch2a_bias_out_0: 3c303cad
(Unnamed Layer* 291) [Constant]_output: 3ae33db4
res5a_branch1_bias_out_0: 3c6af6c9
res5a_branch2a_relu_out_0: 3be1d062
res5a_branch2b_conv_out_0: 3b034267
(Unnamed Layer* 302) [Constant]_output: 3dd266f2
res5a_branch2b_scale_out_0: 3c572108
(Unnamed Layer* 305) [Constant]_output: 3b01b754
res5a_branch2b_bias_out_0: 3c590f25
res5a_branch2b_relu_out_0: 3c54183b
res5a_branch2c_conv_out_0: 3bf18b64
(Unnamed Layer* 309) [Constant]_output: 3d0d262c
res5a_branch2c_scale_out_0: 3cbf020b
(Unnamed Layer* 311) [Constant]_output: 3b071ae1
res5a_branch2c_bias_out_0: 3cbe8d93
res5a_residual_add_out_0: 3cfa6441
res5a_relu_out_0: 3c8ff151
res5b_branch2a_conv_out_0: 3c2c9c59
(Unnamed Layer* 316) [Constant]_output: 3c836465
res5b_branch2a_scale_out_0: 3c79b0e8
(Unnamed Layer* 318) [Constant]_output: 3addfa22
res5b_branch2a_bias_out_0: 3c6c7218
res5b_branch2a_relu_out_0: 3c300d50
res5b_branch2b_conv_out_0: 3b99cdac
(Unnamed Layer* 322) [Constant]_output: 3d5c9e06
res5b_branch2b_scale_out_0: 3c8310fd
(Unnamed Layer* 324) [Constant]_output: 3b6dafd1
res5b_branch2b_bias_out_0: 3c768ff2
res5b_branch2b_relu_out_0: 3c0fd993
res5b_branch2c_conv_out_0: 3bc70ad8
(Unnamed Layer* 328) [Constant]_output: 3d5d3d48
res5b_branch2c_scale_out_0: 3ceb0a4c
(Unnamed Layer* 330) [Constant]_output: 3c4ab74e
res5b_branch2c_bias_out_0: 3ce926ab
res5b_residual_add_out_0: 3ceddc76
res5b_relu_out_0: 3ca11552
res5c_branch2a_conv_out_0: 3c13d703
(Unnamed Layer* 335) [Constant]_output: 3c1249d7
res5c_branch2a_scale_out_0: 3bc43c51
(Unnamed Layer* 337) [Constant]_output: 3a4e32a0
res5c_branch2a_bias_out_0: 3bcf7bac
res5c_branch2a_relu_out_0: 3b8d8eac
res5c_branch2b_conv_out_0: 3b01039b
(Unnamed Layer* 341) [Constant]_output: 3e2f19be
res5c_branch2b_scale_out_0: 3ca93024
(Unnamed Layer* 343) [Constant]_output: 3ae1975e
res5c_branch2b_bias_out_0: 3c949586
res5c_branch2b_relu_out_0: 3c0b4bc9
res5c_branch2c_conv_out_0: 3b563d0e
(Unnamed Layer* 347) [Constant]_output: 3e4b6073
res5c_branch2c_scale_out_0: 3d8fb011
(Unnamed Layer* 349) [Constant]_output: 3c1a73f6
res5c_branch2c_bias_out_0: 3d8d5fae
res5c_residual_add_out_0: 3d927cb5
res5c_relu_out_0: 3d22d100
1375: 3c604c3a
1376: 3d00a951
1421: 3d6a024a
1442: 3d49ac71
1487: 3d3ef1e1
1422: 3d6a024a
1443: 3d586326
1451: 3dc56542
1488: 3d201b72
1496: 3dbdf4e0
1396: 3c604c3a
1423: 3d91cc8f
1444: 3d5ba115
1452: 3dc7b708
1489: 3d51b7ec
1497: 3d935293
1397: 3c9550d7
1445: 3d1e1b3e
1453: 3db298fa
1460: 3e0304bb
1490: 3cac45a5
1498: 3d92c1bc
1505: 3df813d8
1398: 3d042919
1446: 3d21708e
1454: 3d4d2da9
1461: 3de78843
1491: 3c96c765
1499: 3ce2ba6e
1506: 3daf739c
1433: 3d7a5b48
1447: 3cbdae94
1455: 3d480312
1462: 3dbb8275
1478: 3d638bc3
1492: 3bffd76d
1500: 3cb94b3c
1507: 3db4adda
1434: 3d5b28cc
1448: 3cfaf4a6
1456: 3cfe3d9a
1463: 3d80557f
1479: 3d34e738
1493: 3c220831
1501: 3c131435
1508: 3cdffc3a
1418: 3c9550d7
1435: 3d638a92
1449: 3ca841de
1457: 3d3105a4
1464: 3d52ff31
1480: 3d5864fc
1494: 3bb2fc24
1502: 3c4bc357
1509: 3cba9c68
1419: 3caccb31
1436: 3d07d92d
classification_head_25x25: 3e29c348
1458: 3cca9b5a
1465: 3d00450a
1481: 3cb06ac6
regression_head_25x25: 3c1b191f
1503: 3ba9f79d
1510: 3c1d3594
1420: 3d378ca3
1437: 3cfafae1
classification_head_13x13: 3e552bad
1466: 3d3fff1e
1482: 3c96a112
regression_head_13x13: 3bfad4bb
1511: 3c42253f
1424: 3d974d36
1438: 3c9182b7
1467: 3cd62643
1469: 3d938b45
1483: 3c12d319
1512: 3bb08ddf
1425: 3d864d96
1439: 3cade800
classification_head_7x7: 3e45c537
1470: 3d63b161
1484: 3c2e4108
regression_head_7x7: 3bd0213a
1426: 3d783160
1440: 3c8b34e7
1471: 3d623646
1485: 3bc01941
1427: 3d030a97
classification_head_50x50: 3e1ec382
1472: 3cba90ad
regression_head_50x50: 3c5a6382
1428: 3cf0ccf8
1473: 3c8ff8d6
1429: 3c80985a
1474: 3c1496b9
1430: 3c8d6e4a
1475: 3c262763
1431: 3c6f254f
1476: 3bf86c45
classification_head_100x100: 3e21067d
regression_head_100x100: 3c84a4c9
(Unnamed Layer* 460) [Constant]_output: 3c4aea16
nmsopt_output: 3f95c449
